000f ffe0 ffeb 0007
0012 0016 0009 ffeb
ffe1 002a 0018 0015
ffec ffe2 ffdb ffdc
000b 001f ffec 0009
ffe5 0015 000c ffe4
ffdd 0007 0004 0009
0025 ffe7 ffee 000e
0008 ffe2 ffea 001d
0002 ffea 0020 fffe
0012 0009 0014 0011
0018 0011 0025 ffe3
fffb fff2 ffff 001d
0023 0029 ffe6 0009
ffea 0004 fffa 000d
ffe7 fff1 0000 000c
001e 001f ffec fffc
ffef ffe5 0009 ffe3
fffa fff8 fffb ffd3
ffdf 001a ffdf 0011
000d 000e ffd8 000f
ffeb ffeb fff5 000f
fffe 0003 fff6 fff6
fff7 0014 0019 ffe2
fff3 0001 ffe1 0022
0020 000d 0003 0009
0001 fffe 0017 ffec
ffdc fff0 fff9 fffd
000b 0003 0021 ffca
0010 ffe5 ffe9 0008
ffe7 001a 001d 001d
ffe9 ffea ffff ffd6
000c ffd3 fff2 0016
000f 0025 000a 001d
fffe 000e 001d ffe9
0009 001b ffe5 0013
0012 fffe ffef 0009
000c fff1 0028 0018
fffb ffd4 0026 0032
0004 0015 0024 0024
000a 0003 000f ffdf
ffe6 0026 0029 0017
fff8 ffe7 002e 0022
ffe4 000d ffea 0002
0020 0013 ffed 000e
ffdf 000a ffe4 ffe7
002e 001e 0001 fffc
0027 0000 0007 0002
ffdc ffe4 ffee fff1
000c 001f 001c ffe7
ffe9 ffe1 001c 0009
ffe6 ffed 0001 ffe5
000b ffe3 fff1 ffee
fff6 0011 ffe6 001f
fffa 001d ffcb ffed
0018 0025 0018 000a
001f fffd 0022 001b
0007 0013 0008 ffe9
000f 000a 0006 001b
0008 0004 0005 0015
0009 ffd2 002c 0026
ffed ffff ffff fff9
ffdc fff5 0013 0009
ffea fffc 0021 001b
0003 ffdf 001d 002e
fff8 001b 0011 001b
0015 ffe1 000b 0016
000a 0019 001b ffd1
0005 fff1 0011 fff6
002d 0016 ffe1 000f
0021 002c ffe6 0006
0021 ffe1 fff7 ffe1
0006 ffd4 fffa ffee
000d 0016 fff3 fffb
0015 ffe0 0005 0013
ffda ffe1 fff0 ffdd
0017 ffed 0010 fffe
000f fff9 001a ffff
001b ffe1 0004 ffe2
ffe0 0010 ffe6 0018
0023 000c fffb ffe2
001d 0010 0014 0016
ffd0 ffff ffe0 ffde
ffe7 fffc 000e fff2
ffe5 0009 ffd7 ffea
001d 0011 ffdc fff9
0016 0003 ffdd 000f
fffd ffde 000d 0010
0024 0017 0024 002e
0006 ffe9 fff5 ffe7
0019 fff3 ffd9 0023
0000 ffff 0008 ffee
ffdc fff2 fff3 fff1
002f ffff 002c 0013
ffe6 ffe1 0024 0029
000d ffd2 fff9 001a
ffe0 ffe7 0019 ffca
fff9 0027 fff6 ffe3
ffea ffff fff1 0015
ffdc 001a 0027 ffe6
0016 000e fff8 001a
001e 0024 0012 ffdf
0024 0003 ffed ffe6
0013 002b 0013 ffda
ffef ffee 002d 000d
0015 ffe6 0008 ffe5
0019 0016 ffdd ffe9
0001 ffd4 fff7 ffea
fffa 000d 002a ffdd
fffc 0009 ffec 0010
ffef ffdf fff7 ffe2
ffe8 0019 0021 ffe7
fffc 0021 001e 0008
002c 0001 ffea 001f
0004 0005 0014 0003
0018 0011 0023 0019
0018 ffdd 0026 0026
001c ffdb fffb fff6
0025 fff8 ffdf fff0
0000 ffda 0004 0008
001c ffdc 002e 0001
0012 0007 0009 ffe4
0010 ffe0 001d 001c
001a 0017 000b 0001
0022 0022 001d fffa
ffdb ffe5 002a ffe2
001e fffd 000a ffd1
fffd fff9 ffec 0013
fffb 000f 0028 ffe2
fff6 ffeb 0025 0029
0018 ffef fffe 0011
ffea 0021 ffd0 0009
0019 fff5 0020 fff7
0017 002a 000f ffd9
0020 ffea ffdb ffea
ffd2 0003 0015 0023
ffe7 0014 0025 ffda
0020 002c 0009 ffcf
ffd4 fffd fff5 ffd3
0013 0014 0036 0008
0009 ffe0 ffff 000b
ffe9 0007 ffec fff9
ffe9 0005 0016 000c
ffeb ffea fff7 0014
ffda fff9 0028 ffeb
0024 fff3 0020 0020
0020 ffe2 001b 0004
fff6 002c fff1 ffd9
fff5 ffd8 0020 000e
000b 0021 fff0 0020
0015 ffe8 0003 ffe8
fff9 0009 0010 001c
fff6 0012 0004 ffeb
fff6 001c fffa ffec
ffe5 0024 fff8 fffc
fffb fffe 002e 0026
ffff ffd3 0025 0016
ffe0 001b ffe4 0007
0009 0016 fff8 0000
ffe3 ffe6 0019 0005
0008 fffc ffc6 fff6
001a 001c 0027 ffe0
fff6 0034 0017 fff2
ffe7 ffe1 ffe4 ffe4
0000 ffeb 0015 0018
0006 fffd 0027 0016
fff4 0008 0009 0006
000a ffe7 0013 ffda
fff6 0023 ffef 0031
ffd6 000a 0028 0026
0020 0000 0003 ffe1
0014 000d 0005 ffe7
fff6 ffef 0028 001e
ffd9 fff2 ffde ffee
0020 0008 fff8 fff1
fff3 001b 0013 ffd1
001f 0028 ffe1 0000
0000 0001 ffe7 ffed
0007 0004 0004 fffe
ffe3 0024 ffdc 001d
0012 fffe ffd3 002c
000f ffee ffe2 0001
ffea ffdb 002f 0023
ffdd 001a fff4 0020
0024 0003 0006 001c
001e 0030 ffe0 ffec
0004 ffd6 0023 0027
000f ffec 001a 0018
fff3 ffdd 001a 0007
ffe6 001c fff8 ffef
fff6 ffe4 ffec 0018
fffc ffff ffea fff2
ffcf fff3 fffe fff7
0019 ffee 000b 0021
ffff 0001 fff2 0033
fff5 0015 fff3 fffa
0003 0002 0024 0025
0016 ffe8 0000 0018
0030 ffd5 ffea fff4
001a ffe8 ffef 0019
ffe6 ffde 0029 0007
fff6 fff1 ffec ffe9
000b ffd8 ffe3 000a
0014 ffeb 0004 fffb
0021 002b fff0 000e
ffe8 ffe8 0026 ffe9
001e 0023 0001 ffeb
ffdf 001b ffe3 fff3
fffc ffe6 0016 ffed
002a fff0 fffe ffff
002c fff2 ffe6 fffc
ffe6 0017 ffeb 0018
ffec 001f 0003 ffee
0029 fff9 0025 fff4
0018 000a fff8 fff2
ffe7 fff4 ffcf ffe3
fff3 0023 001f 002c
000c fffa ffec 001a
001b fff3 ffe7 fff3
0022 fffa fffe 001c
000e 0007 ffe5 ffec
0026 ffd8 ffe7 0004
002e 0002 fffb 0008
0003 ffe5 0000 002d
000a ffe3 002b 0010
fff7 0022 fff4 ffdf
0026 ffd4 000f fffe
ffff 0005 001e 0018
ffd4 ffda ffdf 0006
001f 001b 0003 000b
fff9 0001 ffee 0012
fffe 0015 0014 0011
000e ffe3 000b 000c
0023 ffe8 001f 001f
ffe8 ffee fffe ffef
ffef ffe8 0027 0023
000d ffdb 0024 ffef
0013 ffee 000f 001d
001b ffee 0002 ffe5
000f 000c fff8 0007
ffee fff9 fff0 0006
000d ffe9 ffe1 ffdc
0005 ffdf fff1 0017
0013 001e 000b fffc
fff2 fff9 000e ffe8
ffda fff4 ffdd ffeb
fff4 0024 0033 ffde
0024 fff2 fffd 0021
001c fff6 ffea 0017
0015 0023 ffef 0000
ffef fff5 ffef fff2
ffed 000b 0013 0022
fffe 0001 ffe9 ffe0
fffa ffd9 0006 0019
ffda fffb 001a 000f
fffa 0004 0012 001a
