memory_initialization_radix=16;
memory_initialization_vector=
2000200120022003,
2004200520062007,
20082009200A200B,
200C200D200E200F,
2010201120122013,
2014201520162017,
20182019201A201B,
201C201D201E201F,
2020202120222023,
2024202520262027,
20282029202A202B,
202C202D202E202F,
2030203120322033,
2034203520362037,
20382039203A203B,
203C203D203E203F,
2040204120422043,
2044204520462047,
20482049204A204B,
204C204D204E204F,
2050205120522053,
2054205520562057,
20582059205A205B,
205C205D205E205F,
2060206120622063,
2064206520662067,
20682069206A206B,
206C206D206E206F,
2070207120722073,
2074207520762077,
20782079207A207B,
207C207D207E207F,
2080208120822083,
2084208520862087,
20882089208A208B,
208C208D208E208F,
2090209120922093,
2094209520962097,
20982099209A209B,
209C209D209E209F,
20A020A120A220A3,
20A420A520A620A7,
20A820A920AA20AB,
20AC20AD20AE20AF,
20B020B120B220B3,
20B420B520B620B7,
20B820B920BA20BB,
20BC20BD20BE20BF;