memory_initialization_radix=16;
memory_initialization_vector=
3000300130023003,
3004300530063007,
30083009300A300B,
300C300D300E300F,
3010301130123013,
3014301530163017,
30183019301A301B,
301C301D301E301F,
3020302130223023,
3024302530263027,
30283029302A302B,
302C302D302E302F,
3030303130323033,
3034303530363037,
30383039303A303B,
303C303D303E303F,
3040304130423043,
3044304530463047,
30483049304A304B,
304C304D304E304F,
3050305130523053,
3054305530563057,
30583059305A305B,
305C305D305E305F,
3060306130623063,
3064306530663067,
30683069306A306B,
306C306D306E306F,
3070307130723073,
3074307530763077,
30783079307A307B,
307C307D307E307F,
3080308130823083,
3084308530863087,
30883089308A308B,
308C308D308E308F,
3090309130923093,
3094309530963097,
30983099309A309B,
309C309D309E309F,
30A030A130A230A3,
30A430A530A630A7,
30A830A930AA30AB,
30AC30AD30AE30AF,
30B030B130B230B3,
30B430B530B630B7,
30B830B930BA30BB,
30BC30BD30BE30BF;