memory_initialization_radix=16;
memory_initialization_vector=
0000000100020003,
0004000500060007,
00080009000A000B,
000C000D000E000F,
0010001100120013,
0014001500160017,
00180019001A001B,
001C001D001E001F,
0020002100220023,
0024002500260027,
00280029002A002B,
002C002D002E002F,
0030003100320033,
0034003500360037,
00380039003A003B,
003C003D003E003F,
0040004100420043,
0044004500460047,
00480049004A004B,
004C004D004E004F,
0050005100520053,
0054005500560057,
00580059005A005B,
005C005D005E005F,
0060006100620063,
0064006500660067,
00680069006A006B,
006C006D006E006F,
0070007100720073,
0074007500760077,
00780079007A007B,
007C007D007E007F,
0080008100820083,
0084008500860087,
00880089008A008B,
008C008D008E008F,
0090009100920093,
0094009500960097,
00980099009A009B,
009C009D009E009F,
00A000A100A200A3,
00A400A500A600A7,
00A800A900AA00AB,
00AC00AD00AE00AF,
00B000B100B200B3,
00B400B500B600B7,
00B800B900BA00BB,
00BC00BD00BE00BF;