memory_initialization_radix=16;
memory_initialization_vector=
1000100110021003,
1004100510061007,
10081009100A100B,
100C100D100E100F,
1010101110121013,
1014101510161017,
10181019101A101B,
101C101D101E101F,
1020102110221023,
1024102510261027,
10281029102A102B,
102C102D102E102F,
1030103110321033,
1034103510361037,
10381039103A103B,
103C103D103E103F,
1040104110421043,
1044104510461047,
10481049104A104B,
104C104D104E104F,
1050105110521053,
1054105510561057,
10581059105A105B,
105C105D105E105F,
1060106110621063,
1064106510661067,
10681069106A106B,
106C106D106E106F,
1070107110721073,
1074107510761077,
10781079107A107B,
107C107D107E107F,
1080108110821083,
1084108510861087,
10881089108A108B,
108C108D108E108F,
1090109110921093,
1094109510961097,
10981099109A109B,
109C109D109E109F,
10A010A110A210A3,
10A410A510A610A7,
10A810A910AA10AB,
10AC10AD10AE10AF,
10B010B110B210B3,
10B410B510B610B7,
10B810B910BA10BB,
10BC10BD10BE10BF;