memory_initialization_radix=16;
memory_initialization_vector=
000FFFE0FFEB0007,
001200160009FFEB,
FFE1002A00180015,
FFECFFE2FFDBFFDC,
000B001FFFEC0009,
FFE50015000CFFE4,
FFDD000700040009,
0025FFE7FFEE000E,
0008FFE2FFEA001D,
0002FFEA0020FFFE,
0012000900140011,
001800110025FFE3,
FFFBFFF2FFFF001D,
00230029FFE60009,
FFEA0004FFFA000D,
FFE7FFF10000000C,
001E001FFFECFFFC,
FFEFFFE50009FFE3,
FFFAFFF8FFFBFFD3,
FFDF001AFFDF0011,
000D000EFFD8000F,
FFEBFFEBFFF5000F,
FFFE0003FFF6FFF6,
FFF700140019FFE2,
FFF30001FFE10022,
0020000D00030009,
0001FFFE0017FFEC,
FFDCFFF0FFF9FFFD,
000B00030021FFCA,
0010FFE5FFE90008,
FFE7001A001D001D,
FFE9FFEAFFFFFFD6,
000CFFD3FFF20016,
000F0025000A001D,
FFFE000E001DFFE9,
0009001BFFE50013,
0012FFFEFFEF0009,
000CFFF100280018,
FFFBFFD400260032,
0004001500240024,
000A0003000FFFDF,
FFE6002600290017,
FFF8FFE7002E0022,
FFE4000DFFEA0002,
00200013FFED000E,
FFDF000AFFE4FFE7,
002E001E0001FFFC,
0027000000070002,
FFDCFFE4FFEEFFF1,
000C001F001CFFE7,
FFE9FFE1001C0009,
FFE6FFED0001FFE5,
000BFFE3FFF1FFEE,
FFF60011FFE6001F,
FFFA001DFFCBFFED,
001800250018000A,
001FFFFD0022001B,
000700130008FFE9,
000F000A0006001B,
0008000400050015,
0009FFD2002C0026,
FFEDFFFFFFFFFFF9,
FFDCFFF500130009,
FFEAFFFC0021001B,
0003FFDF001D002E,
FFF8001B0011001B,
0015FFE1000B0016,
000A0019001BFFD1,
0005FFF10011FFF6,
002D0016FFE1000F,
0021002CFFE60006,
0021FFE1FFF7FFE1,
0006FFD4FFFAFFEE,
000D0016FFF3FFFB,
0015FFE000050013,
FFDAFFE1FFF0FFDD,
0017FFED0010FFFE,
000FFFF9001AFFFF,
001BFFE10004FFE2,
FFE00010FFE60018,
0023000CFFFBFFE2,
001D001000140016,
FFD0FFFFFFE0FFDE,
FFE7FFFC000EFFF2,
FFE50009FFD7FFEA,
001D0011FFDCFFF9,
00160003FFDD000F,
FFFDFFDE000D0010,
002400170024002E,
0006FFE9FFF5FFE7,
0019FFF3FFD90023,
0000FFFF0008FFEE,
FFDCFFF2FFF3FFF1,
002FFFFF002C0013,
FFE6FFE100240029,
000DFFD2FFF9001A,
FFE0FFE70019FFCA,
FFF90027FFF6FFE3,
FFEAFFFFFFF10015,
FFDC001A0027FFE6,
0016000EFFF8001A,
001E00240012FFDF,
00240003FFEDFFE6,
0013002B0013FFDA,
FFEFFFEE002D000D,
0015FFE60008FFE5,
00190016FFDDFFE9,
0001FFD4FFF7FFEA,
FFFA000D002AFFDD,
FFFC0009FFEC0010,
FFEFFFDFFFF7FFE2,
FFE800190021FFE7,
FFFC0021001E0008,
002C0001FFEA001F,
0004000500140003,
0018001100230019,
0018FFDD00260026,
001CFFDBFFFBFFF6,
0025FFF8FFDFFFF0,
0000FFDA00040008,
001CFFDC002E0001,
001200070009FFE4,
0010FFE0001D001C,
001A0017000B0001,
00220022001DFFFA,
FFDBFFE5002AFFE2,
001EFFFD000AFFD1,
FFFDFFF9FFEC0013,
FFFB000F0028FFE2,
FFF6FFEB00250029,
0018FFEFFFFE0011,
FFEA0021FFD00009,
0019FFF50020FFF7,
0017002A000FFFD9,
0020FFEAFFDBFFEA,
FFD2000300150023,
FFE700140025FFDA,
0020002C0009FFCF,
FFD4FFFDFFF5FFD3,
0013001400360008,
0009FFE0FFFF000B,
FFE90007FFECFFF9,
FFE900050016000C,
FFEBFFEAFFF70014,
FFDAFFF90028FFEB,
0024FFF300200020,
0020FFE2001B0004,
FFF6002CFFF1FFD9,
FFF5FFD80020000E,
000B0021FFF00020,
0015FFE80003FFE8,
FFF900090010001C,
FFF600120004FFEB,
FFF6001CFFFAFFEC,
FFE50024FFF8FFFC,
FFFBFFFE002E0026,
FFFFFFD300250016,
FFE0001BFFE40007,
00090016FFF80000,
FFE3FFE600190005,
0008FFFCFFC6FFF6,
001A001C0027FFE0,
FFF600340017FFF2,
FFE7FFE1FFE4FFE4,
0000FFEB00150018,
0006FFFD00270016,
FFF4000800090006,
000AFFE70013FFDA,
FFF60023FFEF0031,
FFD6000A00280026,
002000000003FFE1,
0014000D0005FFE7,
FFF6FFEF0028001E,
FFD9FFF2FFDEFFEE,
00200008FFF8FFF1,
FFF3001B0013FFD1,
001F0028FFE10000,
00000001FFE7FFED,
000700040004FFFE,
FFE30024FFDC001D,
0012FFFEFFD3002C,
000FFFEEFFE20001,
FFEAFFDB002F0023,
FFDD001AFFF40020,
002400030006001C,
001E0030FFE0FFEC,
0004FFD600230027,
000FFFEC001A0018,
FFF3FFDD001A0007,
FFE6001CFFF8FFEF,
FFF6FFE4FFEC0018,
FFFCFFFFFFEAFFF2,
FFCFFFF3FFFEFFF7,
0019FFEE000B0021,
FFFF0001FFF20033,
FFF50015FFF3FFFA,
0003000200240025,
0016FFE800000018,
0030FFD5FFEAFFF4,
001AFFE8FFEF0019,
FFE6FFDE00290007,
FFF6FFF1FFECFFE9,
000BFFD8FFE3000A,
0014FFEB0004FFFB,
0021002BFFF0000E,
FFE8FFE80026FFE9,
001E00230001FFEB,
FFDF001BFFE3FFF3,
FFFCFFE60016FFED,
002AFFF0FFFEFFFF,
002CFFF2FFE6FFFC,
FFE60017FFEB0018,
FFEC001F0003FFEE,
0029FFF90025FFF4,
0018000AFFF8FFF2,
FFE7FFF4FFCFFFE3,
FFF30023001F002C,
000CFFFAFFEC001A,
001BFFF3FFE7FFF3,
0022FFFAFFFE001C,
000E0007FFE5FFEC,
0026FFD8FFE70004,
002E0002FFFB0008,
0003FFE50000002D,
000AFFE3002B0010,
FFF70022FFF4FFDF,
0026FFD4000FFFFE,
FFFF0005001E0018,
FFD4FFDAFFDF0006,
001F001B0003000B,
FFF90001FFEE0012,
FFFE001500140011,
000EFFE3000B000C,
0023FFE8001F001F,
FFE8FFEEFFFEFFEF,
FFEFFFE800270023,
000DFFDB0024FFEF,
0013FFEE000F001D,
001BFFEE0002FFE5,
000F000CFFF80007,
FFEEFFF9FFF00006,
000DFFE9FFE1FFDC,
0005FFDFFFF10017,
0013001E000BFFFC,
FFF2FFF9000EFFE8,
FFDAFFF4FFDDFFEB,
FFF400240033FFDE,
0024FFF2FFFD0021,
001CFFF6FFEA0017,
00150023FFEF0000,
FFEFFFF5FFEFFFF2,
FFED000B00130022,
FFFE0001FFE9FFE0,
FFFAFFD900060019,
FFDAFFFB001A000F,
FFFA00040012001A;