memory_initialization_radix=16;
memory_initialization_vector=
0008002FFFD9002B,
0009FFDAFFDE000F,
0014FFEFFFFEFFFB,
FFF00016FFE8FFEC,
FFE8FFD6FFF5002B,
001000010002FFF2,
000A001BFFE6FFDF,
FFDF0024000B0021,
FFD8002A002FFFF3,
FFF1FFFE0025001B,
000F000F0001FFE7,
FFE60020FFDA0019,
FFF9000FFFE90002,
FFDFFFEA0018002B,
FFEA0005001BFFE9,
FFF0FFD4FFE6001C,
FFE7FFE70014FFFE,
000D000E0016FFEB,
0029FFE90009FFFD,
0008000B0028001D,
00230005000FFFDF,
0024FFFAFFDBFFF4,
0016000DFFE70030,
FFDDFFECFFE10005,
000D00110002FFF5,
000F0025FFF1FFE6,
FFF80002FFEE001D,
FFFE0020001C0017,
0002002CFFF5FFF6,
0024FFE20020FFE6,
0022000CFFDA0008,
00130017000FFFEA,
00190019FFD6FFDE,
FFE7FFDFFFEDFFEA,
0004001EFFE6001D,
FFE5FFF4000AFFFA,
FFFA000DFFE50005,
FFDFFFE30019FFE3,
FFD9FFF9FFE90001,
0015FFF3FFF40020,
0013FFD4FFE30007,
0019FFDEFFD5FFDD,
0001000E00000015,
FFE2000B0018FFF4,
0003002B00010016,
0013FFF00002FFF1,
0003FFDD000E001C,
FFEF0029FFF3001B,
002CFFEC001AFFFE,
FFE2FFE9FFE9FFE2,
0016000AFFFFFFD9,
001B0014002E000D,
FFE70003FFD5000C,
001EFFF1FFF90005,
00110011FFEDFFD2,
FFDDFFDDFFDFFFEA,
FFE40022FFE6FFF8,
0025001E0028FFEF,
0025FFFBFFD7FFE9,
002BFFF90001001C,
0007001A000D000D,
FFF2002D000F002F,
FFE00002FFD7FFD3,
0003FFE2FFE40001,
FFE8FFF3FFFAFFD6,
FFE6FFEBFFDF002F,
00100029002E002E,
0013001EFFFE0014,
000CFFFEFFF1001B,
001AFFDF001F0002,
FFEBFFE6002A0007,
FFE8FFDBFFE8000A,
001F002D001A001B,
0008FFE7FFEF0004,
00280016000CFFF5,
FFFDFFF100150012,
FFF3000D0020000A,
FFEE0004FFDFFFE3,
001B001F0026FFED,
0023002FFFDE000A,
00080007FFF70023,
0001FFFF0005FFE9,
001D002AFFFF0011,
FFD4000AFFE90010,
FFE1FFF3FFF8000F,
FFFFFFEFFFE70009,
FFFDFFE0FFDC000B,
FFF6FFD6FFF0FFFB,
001F000D000B0012,
0003000B00020019,
00130020FFE8FFEA,
FFE1FFF30006FFEA,
FFEB0023FFFD000F,
0012FFD6FFE4000A,
FFD8FFEEFFE0FFDC,
FFF5FFE0FFF2FFF7,
00230022FFF40003,
00030011FFF6001A,
0016FFF7001FFFD7,
FFF2FFE000150019,
FFEF0010FFDEFFE8,
FFE50013001F0022,
001C0025000F0019,
000CFFEEFFEDFFEC,
FFD200140011FFE9,
0027FFE800090014,
FFE5FFE200050012,
0010001100240010,
0015FFF7000C001E,
00000017FFD5FFDD,
001BFFFAFFE60016,
FFE8FFFA00030024,
FFD900070002FFFD,
FFD80009FFDEFFEF,
FFEA000AFFD9FFF4,
FFFDFFDC0000001B,
FFEE00180022FFF3,
FFF7FFEAFFE8002F,
0016001DFFF9000C,
FFDFFFF1FFDBFFE1,
0003001BFFF9000F,
FFEDFFDDFFD20026,
FFEF0025000D0012,
0018FFE8001EFFF0,
FFE2FFE6FFE00003,
002C0015FFE80009,
000F001EFFF1FFFF,
0017FFE9001B0006,
000EFFDFFFE1FFD9,
FFDB0004FFF0FFEF,
FFF2FFDC002CFFF8,
0029FFE2001B001C,
002D001BFFED0026,
FFE0FFEFFFF3000B,
0005FFEC002A0000,
0003000AFFE2FFFB,
0017FFDDFFF90018,
0008001CFFE80006,
FFED00090016FFFB,
FFE7FFE20008FFDA,
FFEF00130020000A,
FFFBFFE10012FFFB,
0014FFF100150007,
00020028FFD70015,
FFE7002AFFE6001B,
FFF8001EFFF8FFF4,
FFD90018FFF7FFE1,
FFF7001500180000,
00180034FFF7FFE2,
FFEC0004FFF0000B,
FFF6002CFFE70009,
FFFB001D000CFFD8,
0005FFE000110000,
000FFFF0000DFFD9,
FFF8FFFFFFFCFFEF,
0015FFE7001F0014,
FFD5FFEB0004002E,
000F000C00230020,
FFF4FFF80004FFEB,
0007FFFBFFF9FFFC,
FFDB000D00040020,
FFDBFFE4FFE2000F,
001DFFEFFFE50002,
000E001900000019,
000AFFFA0022000C,
FFE1FFDB001CFFE6,
0026FFEA0019FFF6,
FFF4FFF4FFF9002B,
0013FFDDFFF10009,
FFF100190012FFDF,
FFF6FFF8001C0014,
FFE70025FFE60020,
FFE8001D0002000A,
001600060014000A,
FFE90026FFED0003,
0020FFD9FFF2FFE9,
002FFFE8001D000A,
FFD7FFF800220007,
0001FFE7FFE60014,
0008FFEA0010000E,
001EFFDD0005000B,
FFEAFFE300190020,
0004001EFFE9FFED,
0003FFD7002D000B,
0008FFE2FFE6001D,
FFE0000A0027FFE5,
FFF9FFFEFFF8FFE9,
FFE3001BFFFBFFDF,
FFDE000FFFF70013,
000FFFE0001CFFF8,
FFFDFFFD000A0023,
0016002600170013,
000B001B00280012,
000000150002FFDC,
FFD40027FFDF0009,
FFEDFFFAFFED001A,
00080029FFDC0000,
0020FFF30026FFE9,
000F0014FFEDFFE2,
0013FFFC001F0027,
0002000DFFE5001E,
0007FFFAFFE1FFFC,
001A0000000CFFDF,
FFE1FFFE0023FFE8,
FFFDFFF40022FFD7,
FFEFFFFDFFDCFFE7,
0021001A000FFFF6,
0015FFDB0005FFEA,
FFD2FFEB001BFFEF,
FFF700200015000F,
FFF5FFFF000B002D,
FFF2FFFF0022FFDD,
002CFFFA001CFFF8,
FFF1001FFFE3FFFD,
FFF3002400170002,
FFEFFFFEFFF3FFFB,
000FFFFAFFE80004,
FFEC00200013FFDB,
FFFB001AFFF20002,
FFD700120014FFF9,
0012FFF50013FFE7,
0019000CFFFC0029,
FFF0001A0011FFCB,
0012FFEEFFD50014,
FFDBFFF9FFEC0009,
0006FFF900250025,
FFDA0013FFF0002A,
FFE0002AFFEB0004,
FFF20002000F0022,
FFF30012FFE5FFE0,
0019FFF00009FFEE,
FFE1FFFA0021000D,
FFE4FFE10000FFF5,
FFE600020023FFF3,
0020FFE5FFDE000E,
0003FFEB00170018,
FFFB001FFFF00016,
FFEAFFF1FFF70014,
FFFDFFED0000000D,
0005FFE2FFE8FFF5,
FFE900020010001C,
FFF5001F001D001A,
FFEB0001FFD8FFFC,
FFE3FFF9FFDC0006,
000DFFE60019002E,
000FFFD3FFF60006,
0022FFFE0008001D,
FFFE002FFFF60005,
0020FFF5FFF4FFFD,
0016FFF30026FFE1,
0012FFF3FFEB0007,
FFFCFFDE0003FFEA,
0001FFFD00090018,
0004000600290002,
001F000DFFF80012,
001C002CFFECFFEC;