0008 002f ffd9 002b
0009 ffda ffde 000f
0014 ffef fffe fffb
fff0 0016 ffe8 ffec
ffe8 ffd6 fff5 002b
0010 0001 0002 fff2
000a 001b ffe6 ffdf
ffdf 0024 000b 0021
ffd8 002a 002f fff3
fff1 fffe 0025 001b
000f 000f 0001 ffe7
ffe6 0020 ffda 0019
fff9 000f ffe9 0002
ffdf ffea 0018 002b
ffea 0005 001b ffe9
fff0 ffd4 ffe6 001c
ffe7 ffe7 0014 fffe
000d 000e 0016 ffeb
0029 ffe9 0009 fffd
0008 000b 0028 001d
0023 0005 000f ffdf
0024 fffa ffdb fff4
0016 000d ffe7 0030
ffdd ffec ffe1 0005
000d 0011 0002 fff5
000f 0025 fff1 ffe6
fff8 0002 ffee 001d
fffe 0020 001c 0017
0002 002c fff5 fff6
0024 ffe2 0020 ffe6
0022 000c ffda 0008
0013 0017 000f ffea
0019 0019 ffd6 ffde
ffe7 ffdf ffed ffea
0004 001e ffe6 001d
ffe5 fff4 000a fffa
fffa 000d ffe5 0005
ffdf ffe3 0019 ffe3
ffd9 fff9 ffe9 0001
0015 fff3 fff4 0020
0013 ffd4 ffe3 0007
0019 ffde ffd5 ffdd
0001 000e 0000 0015
ffe2 000b 0018 fff4
0003 002b 0001 0016
0013 fff0 0002 fff1
0003 ffdd 000e 001c
ffef 0029 fff3 001b
002c ffec 001a fffe
ffe2 ffe9 ffe9 ffe2
0016 000a ffff ffd9
001b 0014 002e 000d
ffe7 0003 ffd5 000c
001e fff1 fff9 0005
0011 0011 ffed ffd2
ffdd ffdd ffdf ffea
ffe4 0022 ffe6 fff8
0025 001e 0028 ffef
0025 fffb ffd7 ffe9
002b fff9 0001 001c
0007 001a 000d 000d
fff2 002d 000f 002f
ffe0 0002 ffd7 ffd3
0003 ffe2 ffe4 0001
ffe8 fff3 fffa ffd6
ffe6 ffeb ffdf 002f
0010 0029 002e 002e
0013 001e fffe 0014
000c fffe fff1 001b
001a ffdf 001f 0002
ffeb ffe6 002a 0007
ffe8 ffdb ffe8 000a
001f 002d 001a 001b
0008 ffe7 ffef 0004
0028 0016 000c fff5
fffd fff1 0015 0012
fff3 000d 0020 000a
ffee 0004 ffdf ffe3
001b 001f 0026 ffed
0023 002f ffde 000a
0008 0007 fff7 0023
0001 ffff 0005 ffe9
001d 002a ffff 0011
ffd4 000a ffe9 0010
ffe1 fff3 fff8 000f
ffff ffef ffe7 0009
fffd ffe0 ffdc 000b
fff6 ffd6 fff0 fffb
001f 000d 000b 0012
0003 000b 0002 0019
0013 0020 ffe8 ffea
ffe1 fff3 0006 ffea
ffeb 0023 fffd 000f
0012 ffd6 ffe4 000a
ffd8 ffee ffe0 ffdc
fff5 ffe0 fff2 fff7
0023 0022 fff4 0003
0003 0011 fff6 001a
0016 fff7 001f ffd7
fff2 ffe0 0015 0019
ffef 0010 ffde ffe8
ffe5 0013 001f 0022
001c 0025 000f 0019
000c ffee ffed ffec
ffd2 0014 0011 ffe9
0027 ffe8 0009 0014
ffe5 ffe2 0005 0012
0010 0011 0024 0010
0015 fff7 000c 001e
0000 0017 ffd5 ffdd
001b fffa ffe6 0016
ffe8 fffa 0003 0024
ffd9 0007 0002 fffd
ffd8 0009 ffde ffef
ffea 000a ffd9 fff4
fffd ffdc 0000 001b
ffee 0018 0022 fff3
fff7 ffea ffe8 002f
0016 001d fff9 000c
ffdf fff1 ffdb ffe1
0003 001b fff9 000f
ffed ffdd ffd2 0026
ffef 0025 000d 0012
0018 ffe8 001e fff0
ffe2 ffe6 ffe0 0003
002c 0015 ffe8 0009
000f 001e fff1 ffff
0017 ffe9 001b 0006
000e ffdf ffe1 ffd9
ffdb 0004 fff0 ffef
fff2 ffdc 002c fff8
0029 ffe2 001b 001c
002d 001b ffed 0026
ffe0 ffef fff3 000b
0005 ffec 002a 0000
0003 000a ffe2 fffb
0017 ffdd fff9 0018
0008 001c ffe8 0006
ffed 0009 0016 fffb
ffe7 ffe2 0008 ffda
ffef 0013 0020 000a
fffb ffe1 0012 fffb
0014 fff1 0015 0007
0002 0028 ffd7 0015
ffe7 002a ffe6 001b
fff8 001e fff8 fff4
ffd9 0018 fff7 ffe1
fff7 0015 0018 0000
0018 0034 fff7 ffe2
ffec 0004 fff0 000b
fff6 002c ffe7 0009
fffb 001d 000c ffd8
0005 ffe0 0011 0000
000f fff0 000d ffd9
fff8 ffff fffc ffef
0015 ffe7 001f 0014
ffd5 ffeb 0004 002e
000f 000c 0023 0020
fff4 fff8 0004 ffeb
0007 fffb fff9 fffc
ffdb 000d 0004 0020
ffdb ffe4 ffe2 000f
001d ffef ffe5 0002
000e 0019 0000 0019
000a fffa 0022 000c
ffe1 ffdb 001c ffe6
0026 ffea 0019 fff6
fff4 fff4 fff9 002b
0013 ffdd fff1 0009
fff1 0019 0012 ffdf
fff6 fff8 001c 0014
ffe7 0025 ffe6 0020
ffe8 001d 0002 000a
0016 0006 0014 000a
ffe9 0026 ffed 0003
0020 ffd9 fff2 ffe9
002f ffe8 001d 000a
ffd7 fff8 0022 0007
0001 ffe7 ffe6 0014
0008 ffea 0010 000e
001e ffdd 0005 000b
ffea ffe3 0019 0020
0004 001e ffe9 ffed
0003 ffd7 002d 000b
0008 ffe2 ffe6 001d
ffe0 000a 0027 ffe5
fff9 fffe fff8 ffe9
ffe3 001b fffb ffdf
ffde 000f fff7 0013
000f ffe0 001c fff8
fffd fffd 000a 0023
0016 0026 0017 0013
000b 001b 0028 0012
0000 0015 0002 ffdc
ffd4 0027 ffdf 0009
ffed fffa ffed 001a
0008 0029 ffdc 0000
0020 fff3 0026 ffe9
000f 0014 ffed ffe2
0013 fffc 001f 0027
0002 000d ffe5 001e
0007 fffa ffe1 fffc
001a 0000 000c ffdf
ffe1 fffe 0023 ffe8
fffd fff4 0022 ffd7
ffef fffd ffdc ffe7
0021 001a 000f fff6
0015 ffdb 0005 ffea
ffd2 ffeb 001b ffef
fff7 0020 0015 000f
fff5 ffff 000b 002d
fff2 ffff 0022 ffdd
002c fffa 001c fff8
fff1 001f ffe3 fffd
fff3 0024 0017 0002
ffef fffe fff3 fffb
000f fffa ffe8 0004
ffec 0020 0013 ffdb
fffb 001a fff2 0002
ffd7 0012 0014 fff9
0012 fff5 0013 ffe7
0019 000c fffc 0029
fff0 001a 0011 ffcb
0012 ffee ffd5 0014
ffdb fff9 ffec 0009
0006 fff9 0025 0025
ffda 0013 fff0 002a
ffe0 002a ffeb 0004
fff2 0002 000f 0022
fff3 0012 ffe5 ffe0
0019 fff0 0009 ffee
ffe1 fffa 0021 000d
ffe4 ffe1 0000 fff5
ffe6 0002 0023 fff3
0020 ffe5 ffde 000e
0003 ffeb 0017 0018
fffb 001f fff0 0016
ffea fff1 fff7 0014
fffd ffed 0000 000d
0005 ffe2 ffe8 fff5
ffe9 0002 0010 001c
fff5 001f 001d 001a
ffeb 0001 ffd8 fffc
ffe3 fff9 ffdc 0006
000d ffe6 0019 002e
000f ffd3 fff6 0006
0022 fffe 0008 001d
fffe 002f fff6 0005
0020 fff5 fff4 fffd
0016 fff3 0026 ffe1
0012 fff3 ffeb 0007
fffc ffde 0003 ffea
0001 fffd 0009 0018
0004 0006 0029 0002
001f 000d fff8 0012
001c 002c ffec ffec